-- begin_signature
-- fetch_layer
-- end_signature
WIDTH=12;
DEPTH=10;

ADDRESS_RADIX=UNS;
DATA_RADIX=BIN;

CONTENT BEGIN
	9 :	XXXXXXXXXXXX;
	8 :	XXXXXXXXXXXX;
	7 :	XXXXXXXXXXXX;
	6 :	XXXXXXXXXXXX;
	5 :	XXXXXXXXXXXX;
	4 :	XXXXXXXXXXXX;
	3 :	XXXXXXXXXXXX;
	2 :	001000000000;
	1 :	000100000000;
	0 :	000100000000;
END;
